{
  "version": "1.0",
  "truncation": null,
  "padding": null,
  "added_tokens": [
    {
      "id": 0,
      "content": "[UNK]",
      "single_word": false,
      "lstrip": false,
      "rstrip": false,
      "normalized": false,
      "special": true
    },
    {
      "id": 1,
      "content": "[CLS]",
      "single_word": false,
      "lstrip": false,
      "rstrip": false,
      "normalized": false,
      "special": true
    },
    {
      "id": 2,
      "content": "[SEP]",
      "single_word": false,
      "lstrip": false,
      "rstrip": false,
      "normalized": false,
      "special": true
    },
    {
      "id": 3,
      "content": "[PAD]",
      "single_word": false,
      "lstrip": false,
      "rstrip": false,
      "normalized": false,
      "special": true
    },
    {
      "id": 4,
      "content": "[MASK]",
      "single_word": false,
      "lstrip": false,
      "rstrip": false,
      "normalized": false,
      "special": true
    }
  ],
  "normalizer": {
    "type": "NFKC"
  },
  "pre_tokenizer": {
    "type": "Whitespace"
  },
  "post_processor": {
    "type": "TemplateProcessing",
    "single": [
      {
        "SpecialToken": {
          "id": "[CLS]",
          "type_id": 0
        }
      },
      {
        "Sequence": {
          "id": "A",
          "type_id": 0
        }
      },
      {
        "SpecialToken": {
          "id": "[SEP]",
          "type_id": 0
        }
      }
    ],
    "pair": [
      {
        "SpecialToken": {
          "id": "[CLS]",
          "type_id": 0
        }
      },
      {
        "Sequence": {
          "id": "A",
          "type_id": 0
        }
      },
      {
        "SpecialToken": {
          "id": "[SEP]",
          "type_id": 0
        }
      },
      {
        "Sequence": {
          "id": "B",
          "type_id": 1
        }
      },
      {
        "SpecialToken": {
          "id": "[SEP]",
          "type_id": 1
        }
      }
    ],
    "special_tokens": {
      "[CLS]": {
        "id": "[CLS]",
        "ids": [
          1
        ],
        "tokens": [
          "[CLS]"
        ]
      },
      "[SEP]": {
        "id": "[SEP]",
        "ids": [
          2
        ],
        "tokens": [
          "[SEP]"
        ]
      }
    }
  },
  "decoder": null,
  "model": {
    "type": "WordPiece",
    "unk_token": "[UNK]",
    "continuing_subword_prefix": "##",
    "max_input_chars_per_word": 100,
    "vocab": {
      "[UNK]": 0,
      "[CLS]": 1,
      "[SEP]": 2,
      "[PAD]": 3,
      "[MASK]": 4,
      "!": 5,
      "\"": 6,
      "&": 7,
      "'": 8,
      ",": 9,
      "-": 10,
      ".": 11,
      "1": 12,
      "2": 13,
      "3": 14,
      "5": 15,
      ";": 16,
      "A": 17,
      "B": 18,
      "C": 19,
      "D": 20,
      "E": 21,
      "F": 22,
      "G": 23,
      "H": 24,
      "I": 25,
      "J": 26,
      "K": 27,
      "L": 28,
      "M": 29,
      "N": 30,
      "O": 31,
      "P": 32,
      "R": 33,
      "S": 34,
      "T": 35,
      "U": 36,
      "V": 37,
      "W": 38,
      "X": 39,
      "Y": 40,
      "a": 41,
      "b": 42,
      "c": 43,
      "d": 44,
      "e": 45,
      "f": 46,
      "g": 47,
      "h": 48,
      "i": 49,
      "j": 50,
      "k": 51,
      "l": 52,
      "m": 53,
      "n": 54,
      "o": 55,
      "p": 56,
      "q": 57,
      "r": 58,
      "s": 59,
      "t": 60,
      "u": 61,
      "v": 62,
      "w": 63,
      "x": 64,
      "y": 65,
      "z": 66,
      "##a": 67,
      "##v": 68,
      "##i": 69,
      "##n": 70,
      "##g": 71,
      "##p": 72,
      "##l": 73,
      "##e": 74,
      "##s": 75,
      "##h": 76,
      "##o": 77,
      "##u": 78,
      "##c": 79,
      "##d": 80,
      "##t": 81,
      "##r": 82,
      "##y": 83,
      "##b": 84,
      "##x": 85,
      "##m": 86,
      "##k": 87,
      "##w": 88,
      "##f": 89,
      "##j": 90,
      "##q": 91,
      "##M": 92,
      "##X": 93,
      "##S": 94,
      "##z": 95,
      "##\"": 96,
      "##.": 97,
      "##3": 98,
      "##P": 99,
      "##T": 100,
      "##he": 101,
      "##an": 102,
      "is": 103,
      "##in": 104,
      "The": 105,
      "##re": 106,
      "##ing": 107,
      "man": 108,
      "##le": 109,
      "##id": 110,
      "##ide": 111,
      "##side": 112,
      "##ut": 113,
      "out": 114,
      "outside": 115,
      "##ple": 116,
      "are": 117,
      "##eo": 118,
      "##eople": 119,
      "people": 120,
      "in": 121,
      "##it": 122,
      "##en": 123,
      "do": 124,
      "##rs": 125,
      "##ting": 126,
      "##om": 127,
      "There": 128,
      "st": 129,
      "sit": 130,
      "##al": 131,
      "sitting": 132,
      "##ding": 133,
      "the": 134,
      "wom": 135,
      "##oo": 136,
      "##la": 137,
      "##ar": 138,
      "##ent": 139,
      "##ep": 140,
      "sle": 141,
      "sleep": 142,
      "sleeping": 143,
      "##res": 144,
      "an": 145,
      "woman": 146,
      "##un": 147,
      "stan": 148,
      "##er": 149,
      "##doo": 150,
      "##doors": 151,
      "standing": 152,
      "##king": 153,
      "##ti": 154,
      "dog": 155,
      "##ir": 156,
      "##ul": 157,
      "on": 158,
      "pres": 159,
      "present": 160,
      "pla": 161,
      "##ying": 162,
      "##wn": 163,
      "##on": 164,
      "playing": 165,
      "mul": 166,
      "multi": 167,
      "multiple": 168,
      "wal": 169,
      "down": 170,
      "indoors": 171,
      "People": 172,
      "##et": 173,
      "##at": 174,
      "walking": 175,
      "of": 176,
      "sh": 177,
      "and": 178,
      "##ro": 179,
      "##wo": 180,
      "wit": 181,
      "with": 182,
      "run": 183,
      "##ning": 184,
      "running": 185,
      "bo": 186,
      "inside": 187,
      "##ear": 188,
      "##ers": 189,
      "Two": 190,
      "sw": 191,
      "##irt": 192,
      "##ck": 193,
      "##st": 194,
      "wh": 195,
      "##im": 196,
      "##or": 197,
      "to": 198,
      "wear": 199,
      "wearing": 200,
      "##ed": 201,
      "##ming": 202,
      "swim": 203,
      "swimming": 204,
      "boy": 205,
      "##il": 206,
      "ba": 207,
      "shirt": 208,
      "##ri": 209,
      "ho": 210,
      ".\"": 211,
      "##ic": 212,
      "##es": 213,
      "bl": 214,
      "##all": 215,
      "##ow": 216,
      "##gh": 217,
      "at": 218,
      "##ru": 219,
      "##el": 220,
      "wat": 221,
      "##iding": 222,
      "##irl": 223,
      "riding": 224,
      "blu": 225,
      "##stru": 226,
      "pers": 227,
      "person": 228,
      "men": 229,
      "blue": 230,
      "girl": 231,
      "one": 232,
      "##reet": 233,
      "street": 234,
      "##ght": 235,
      "##ite": 236,
      "##is": 237,
      "##ree": 238,
      "##ad": 239,
      "##oun": 240,
      "water": 241,
      "##ball": 242,
      "bas": 243,
      "##ment": 244,
      "white": 245,
      "hol": 246,
      "##ile": 247,
      "##lack": 248,
      "black": 249,
      "##am": 250,
      "##hil": 251,
      "##und": 252,
      "##hild": 253,
      "be": 254,
      "##round": 255,
      "##ly": 256,
      "while": 257,
      "##ra": 258,
      "instru": 259,
      "instrument": 260,
      "##ot": 261,
      "outdoors": 262,
      "gu": 263,
      "holding": 264,
      "##ur": 265,
      "##ss": 266,
      "##ket": 267,
      "##ch": 268,
      "##her": 269,
      "red": 270,
      "basket": 271,
      "##low": 272,
      "basketball": 273,
      "child": 274,
      "car": 275,
      "wor": 276,
      "##itar": 277,
      "guitar": 278,
      "th": 279,
      "##rse": 280,
      "his": 281,
      "##cc": 282,
      "horse": 283,
      "so": 284,
      "##oung": 285,
      "##ccer": 286,
      "##inging": 287,
      "soccer": 288,
      "int": 289,
      "##ik": 290,
      "##ving": 291,
      "fo": 292,
      "singing": 293,
      "women": 294,
      "##ph": 295,
      "##ds": 296,
      "##ts": 297,
      "fr": 298,
      "young": 299,
      "wa": 300,
      "bri": 301,
      "##ge": 302,
      "bik": 303,
      "dogs": 304,
      "hat": 305,
      "##ain": 306,
      "two": 307,
      "##ce": 308,
      "##tion": 309,
      "only": 310,
      "##by": 311,
      "dri": 312,
      "yel": 313,
      "##reen": 314,
      "yellow": 315,
      "green": 316,
      "som": 317,
      "driving": 318,
      "##ground": 319,
      "##one": 320,
      "li": 321,
      "co": 322,
      "##hing": 323,
      "loo": 324,
      "po": 325,
      "##rou": 326,
      "##ction": 327,
      "work": 328,
      "her": 329,
      "##tu": 330,
      "##yc": 331,
      "bright": 332,
      "Th": 333,
      "##ind": 334,
      "Three": 335,
      "sho": 336,
      "top": 337,
      "##ack": 338,
      "baby": 339,
      "into": 340,
      "bu": 341,
      "##phone": 342,
      "han": 343,
      "fi": 344,
      "gra": 345,
      "##ale": 346,
      "##ian": 347,
      "sn": 348,
      "up": 349,
      "##li": 350,
      "##roup": 351,
      "fe": 352,
      "group": 353,
      "ha": 354,
      "jack": 355,
      "ta": 356,
      "jacket": 357,
      "mic": 358,
      "micro": 359,
      "##ething": 360,
      "##icyc": 361,
      "something": 362,
      "##bo": 363,
      "buil": 364,
      "by": 365,
      "microphone": 366,
      "building": 367,
      "looking": 368,
      "sm": 369,
      "fore": 370,
      "##ren": 371,
      "con": 372,
      "##tle": 373,
      "##hind": 374,
      "behind": 375,
      "##ress": 376,
      "##ont": 377,
      "##ittle": 378,
      "front": 379,
      "dress": 380,
      "sc": 381,
      "##ble": 382,
      "back": 383,
      "##ks": 384,
      "snow": 385,
      "shor": 386,
      "##ve": 387,
      "##pe": 388,
      "ot": 389,
      "ro": 390,
      "##um": 391,
      "##struction": 392,
      "bicyc": 393,
      "##other": 394,
      "pic": 395,
      "##ver": 396,
      "##ount": 397,
      "bicycle": 398,
      "another": 399,
      "pictu": 400,
      "##eld": 401,
      "cam": 402,
      "##se": 403,
      "##og": 404,
      "##dle": 405,
      "##row": 406,
      "other": 407,
      "##era": 408,
      "field": 409,
      "##ling": 410,
      "for": 411,
      "pain": 412,
      "##ak": 413,
      "##lo": 414,
      "camera": 415,
      "te": 416,
      "cr": 417,
      "##lass": 418,
      "##ark": 419,
      "as": 420,
      "background": 421,
      "##ie": 422,
      "##ld": 423,
      "go": 424,
      "there": 425,
      "painting": 426,
      "##iting": 427,
      "##war": 428,
      "##ross": 429,
      "children": 430,
      "little": 431,
      "##ace": 432,
      "shorts": 433,
      "ac": 434,
      "three": 435,
      "construction": 436,
      "##ee": 437,
      "towar": 438,
      "waiting": 439,
      "dirt": 440,
      "from": 441,
      "side": 442,
      "##ff": 443,
      "table": 444,
      "towards": 445,
      "ben": 446,
      "male": 447,
      "tal": 448,
      "tree": 449,
      "##red": 450,
      "##ering": 451,
      "hair": 452,
      "across": 453,
      "##che": 454,
      "##ink": 455,
      "##ird": 456,
      "##ris": 457,
      "##els": 458,
      "working": 459,
      "bench": 460,
      "ne": 461,
      "light": 462,
      "##ating": 463,
      "##ig": 464,
      "##est": 465,
      "##ong": 466,
      "workers": 467,
      "picture": 468,
      "##ard": 469,
      "girls": 470,
      "foreground": 471,
      "##ountain": 472,
      "##vels": 473,
      "##pp": 474,
      "shovels": 475,
      "lad": 476,
      "ph": 477,
      "##ging": 478,
      "team": 479,
      "or": 480,
      "##xt": 481,
      "ca": 482,
      "near": 483,
      "pink": 484,
      "##ame": 485,
      "small": 486,
      "next": 487,
      "##ay": 488,
      "##ond": 489,
      "game": 490,
      "lady": 491,
      "blond": 492,
      "bike": 493,
      "hand": 494,
      "whe": 495,
      "##qu": 496,
      "##and": 497,
      "##ching": 498,
      "al": 499,
      "doing": 500,
      "grass": 501,
      "sur": 502,
      "play": 503,
      "crow": 504,
      "sa": 505,
      "##ces": 506,
      "##ft": 507,
      "##ange": 508,
      "##ath": 509,
      "bow": 510,
      "base": 511,
      "##ign": 512,
      "crowd": 513,
      "As": 514,
      "ad": 515,
      "##ves": 516,
      "##ort": 517,
      "bikes": 518,
      "##lasses": 519,
      "orange": 520,
      "tan": 521,
      "##ants": 522,
      "Asian": 523,
      "##sh": 524,
      "who": 525,
      "was": 526,
      "crying": 527,
      "baseball": 528,
      "ball": 529,
      "Wom": 530,
      "pants": 531,
      "sk": 532,
      "##ful": 533,
      "gray": 534,
      "phot": 535,
      "area": 536,
      "shirts": 537,
      "##ump": 538,
      "abo": 539,
      "mountain": 540,
      "ride": 541,
      "sta": 542,
      "##dler": 543,
      "Woman": 544,
      "flow": 545,
      "##ddler": 546,
      "##male": 547,
      "walk": 548,
      "att": 549,
      "watching": 550,
      "hanging": 551,
      "##ogra": 552,
      "aw": 553,
      "around": 554,
      "ex": 555,
      "jump": 556,
      "pr": 557,
      "##ase": 558,
      "female": 559,
      "bowling": 560,
      "photogra": 561,
      "It": 562,
      "vest": 563,
      "where": 564,
      "photograph": 565,
      "Child": 566,
      "shad": 567,
      "scen": 568,
      "le": 569,
      "##bee": 570,
      "##head": 571,
      "##erse": 572,
      "##ows": 573,
      "##light": 574,
      "##risbee": 575,
      "##ught": 576,
      "##cing": 577,
      "##ity": 578,
      "lar": 579,
      "##ms": 580,
      "sits": 581,
      "##lip": 582,
      "buildings": 583,
      "shades": 584,
      "large": 585,
      "bird": 586,
      "che": 587,
      "frisbee": 588,
      "sun": 589,
      "##ptu": 590,
      "##tt": 591,
      "sleeps": 592,
      "interse": 593,
      "intersection": 594,
      "pa": 595,
      "##sing": 596,
      "##ulptu": 597,
      "sculptu": 598,
      "talking": 599,
      "flowering": 600,
      "sculptures": 601,
      "air": 602,
      "cl": 603,
      "ch": 604,
      "bea": 605,
      "dan": 606,
      "over": 607,
      "##for": 608,
      "their": 609,
      "snowing": 610,
      "city": 611,
      "stands": 612,
      "wall": 613,
      "##iling": 614,
      "taking": 615,
      "##wal": 616,
      "##ans": 617,
      "sidewal": 618,
      "sidewalk": 619,
      "it": 620,
      "##ion": 621,
      "##nd": 622,
      "walks": 623,
      "##ate": 624,
      "ar": 625,
      "smiling": 626,
      "dressed": 627,
      "jumping": 628,
      "old": 629,
      "##irs": 630,
      "##lor": 631,
      "##ry": 632,
      "##ys": 633,
      "##ook": 634,
      "bro": 635,
      "je": 636,
      "mid": 637,
      "##ub": 638,
      "##ood": 639,
      "along": 640,
      "fis": 641,
      "per": 642,
      "pian": 643,
      "sign": 644,
      "##ick": 645,
      "##ever": 646,
      "stri": 647,
      "swe": 648,
      "that": 649,
      "piano": 650,
      "mo": 651,
      "##fe": 652,
      "holds": 653,
      "some": 654,
      "clot": 655,
      "jeans": 656,
      "An": 657,
      "eating": 658,
      "ground": 659,
      "pro": 660,
      "park": 661,
      "re": 662,
      "she": 663,
      "##ist": 664,
      "##our": 665,
      "##ets": 666,
      "##ater": 667,
      "##ric": 668,
      "color": 669,
      "can": 670,
      "kit": 671,
      "##ug": 672,
      "##ice": 673,
      "##ads": 674,
      "##uring": 675,
      "##chen": 676,
      "dancing": 677,
      "brown": 678,
      "kitchen": 679,
      "Four": 680,
      "cat": 681,
      "##ids": 682,
      "has": 683,
      "##lic": 684,
      "##man": 685,
      "##ome": 686,
      "sto": 687,
      "##oon": 688,
      "looks": 689,
      "posing": 690,
      "##board": 691,
      "cap": 692,
      "adul": 693,
      "past": 694,
      "perfor": 695,
      "Young": 696,
      "cu": 697,
      "dark": 698,
      "he": 699,
      "path": 700,
      "##mp": 701,
      "##led": 702,
      "them": 703,
      "##ari": 704,
      "off": 705,
      "throw": 706,
      "post": 707,
      "surf": 708,
      "stairs": 709,
      "colorful": 710,
      "fa": 711,
      "tre": 712,
      "##glasses": 713,
      "##hes": 714,
      "##ily": 715,
      "##rounded": 716,
      "guys": 717,
      "rope": 718,
      "##lored": 719,
      "surrounded": 720,
      "balloon": 721,
      "Children": 722,
      "sunglasses": 723,
      "adults": 724,
      "ap": 725,
      "am": 726,
      "aqu": 727,
      "glasses": 728,
      "long": 729,
      "pur": 730,
      "pub": 731,
      "##air": 732,
      "##age": 733,
      "##les": 734,
      "##aring": 735,
      "##door": 736,
      "##ated": 737,
      "##room": 738,
      "toddler": 739,
      "cart": 740,
      "four": 741,
      "hats": 742,
      "shop": 743,
      "##ake": 744,
      "##iew": 745,
      "fish": 746,
      "catch": 747,
      "public": 748,
      "Girl": 749,
      "Little": 750,
      "To": 751,
      "bal": 752,
      "face": 753,
      "mil": 754,
      "view": 755,
      "##igh": 756,
      "##use": 757,
      "##dy": 758,
      "##fet": 759,
      "outdoor": 760,
      "##ence": 761,
      "##erle": 762,
      "##sts": 763,
      "life": 764,
      "colored": 765,
      "tank": 766,
      "away": 767,
      "left": 768,
      "arms": 769,
      "##arium": 770,
      "poster": 771,
      "trees": 772,
      "aquarium": 773,
      "purple": 774,
      "app": 775,
      "fil": 776,
      "high": 777,
      "pul": 778,
      "pad": 779,
      "wind": 780,
      "##iz": 781,
      "##us": 782,
      "##case": 783,
      "##ance": 784,
      "body": 785,
      "biker": 786,
      "poin": 787,
      "shore": 788,
      "##boar": 789,
      "road": 790,
      "##lden": 791,
      "##ched": 792,
      "safet": 793,
      "##cess": 794,
      "skate": 795,
      "about": 796,
      "safety": 797,
      "Fi": 798,
      "bear": 799,
      "band": 800,
      "fam": 801,
      "fence": 802,
      "glo": 803,
      "kids": 804,
      "lake": 805,
      "mur": 806,
      "not": 807,
      "race": 808,
      "##uth": 809,
      "##aders": 810,
      "third": 811,
      "asian": 812,
      "talks": 813,
      "crowded": 814,
      "above": 815,
      "prin": 816,
      "scene": 817,
      "cheering": 818,
      "mouth": 819,
      "milk": 820,
      "##erleaders": 821,
      "##boarding": 822,
      "beard": 823,
      "family": 824,
      "mural": 825,
      "count": 826,
      "flight": 827,
      "kick": 828,
      "mot": 829,
      "sort": 830,
      "##eak": 831,
      "##be": 832,
      "##za": 833,
      "##uto": 834,
      "##rest": 835,
      "places": 836,
      "##etting": 837,
      "town": 838,
      "##ghting": 839,
      "fol": 840,
      "cou": 841,
      "fighting": 842,
      "sneak": 843,
      "few": 844,
      "exc": 845,
      "vests": 846,
      "clothes": 847,
      "Girls": 848,
      "filled": 849,
      "pulling": 850,
      "paddle": 851,
      "pointing": 852,
      "Five": 853,
      "gloves": 854,
      "princess": 855,
      "sneakers": 856,
      "ban": 857,
      "bite": 858,
      "bath": 859,
      "cla": 860,
      "clip": 861,
      "cuto": 862,
      "da": 863,
      "fat": 864,
      "glass": 865,
      "gard": 866,
      "home": 867,
      "put": 868,
      "squ": 869,
      "##ached": 870,
      "##emp": 871,
      "##oh": 872,
      "##ited": 873,
      "boat": 874,
      "##raw": 875,
      "lift": 876,
      "pol": 877,
      "##lists": 878,
      "jackets": 879,
      "forehead": 880,
      "short": 881,
      "bicycles": 882,
      "pictures": 883,
      "goal": 884,
      "golden": 885,
      "##pped": 886,
      "attemp": 887,
      "##ughter": 888,
      "midair": 889,
      "cano": 890,
      "stop": 891,
      "throws": 892,
      "bald": 893,
      "motor": 894,
      "follow": 895,
      "excited": 896,
      "bathroom": 897,
      "clipboard": 898,
      "cutoff": 899,
      "daughter": 900,
      "garden": 901,
      "putting": 902,
      "Che": 903,
      "Se": 904,
      "cris": 905,
      "end": 906,
      "gree": 907,
      "im": 908,
      "log": 909,
      "own": 910,
      "pe": 911,
      "port": 912,
      "ret": 913,
      "##ait": 914,
      "##iful": 915,
      "##gin": 916,
      "##pher": 917,
      "##look": 918,
      "##ef": 919,
      "##eding": 920,
      "##cent": 921,
      "##cyc": 922,
      "##yro": 923,
      "##ka": 924,
      "##ining": 925,
      "##inated": 926,
      "##utiful": 927,
      "dove": 928,
      "##ently": 929,
      "slee": 930,
      "onlook": 931,
      "##aturing": 932,
      "bott": 933,
      "beer": 934,
      "begin": 935,
      "##rait": 936,
      "thin": 937,
      "forest": 938,
      "waist": 939,
      "brief": 940,
      "coff": 941,
      "feeding": 942,
      "featuring": 943,
      "caught": 944,
      "nearby": 945,
      "##shion": 946,
      "attached": 947,
      "await": 948,
      "chase": 949,
      "office": 950,
      "surface": 951,
      "apple": 952,
      "amuse": 953,
      "Toddler": 954,
      "appear": 955,
      "##izza": 956,
      "country": 957,
      "squat": 958,
      "polka": 959,
      "attempting": 960,
      "canoes": 961,
      "following": 962,
      "Cheerleaders": 963,
      "greeting": 964,
      "image": 965,
      "portrait": 966,
      "onlookers": 967,
      "bottom": 968,
      "briefcase": 969,
      "coffee": 970,
      "amusement": 971,
      "Ad": 972,
      "Bicyc": 973,
      "Band": 974,
      "Con": 975,
      "Ger": 976,
      "Gyro": 977,
      "Joh": 978,
      "Out": 979,
      "Pizza": 980,
      "eater": 981,
      "flip": 982,
      "kay": 983,
      "la": 984,
      "mug": 985,
      "ra": 986,
      "sep": 987,
      "slo": 988,
      "slight": 989,
      "##vance": 990,
      "##eres": 991,
      "##sis": 992,
      "##oles": 993,
      "##uble": 994,
      "##rred": 995,
      "##yst": 996,
      "##bric": 997,
      "##minated": 998,
      "##ana": 999,
      "##inently": 1000,
      "dott": 1001,
      "double": 1002,
      "dominated": 1003,
      "##ominently": 1004,
      "##arating": 1005,
      "##epads": 1006,
      "shows": 1007,
      "sharing": 1008,
      "shirted": 1009,
      "##riever": 1010,
      "blurred": 1011,
      "##amining": 1012,
      "redhead": 1013,
      "throu": 1014,
      "interes": 1015,
      "##iko": 1016,
      "bikers": 1017,
      "living": 1018,
      "poking": 1019,
      "foreign": 1020,
      "consis": 1021,
      "robe": 1022,
      "cryst": 1023,
      "sides": 1024,
      "tablet": 1025,
      "lights": 1026,
      "blonde": 1027,
      "sash": 1028,
      "advance": 1029,
      "walkers": 1030,
      "examining": 1031,
      "prominently": 1032,
      "females": 1033,
      "scenic": 1034,
      "beautiful": 1035,
      "stripe": 1036,
      "sweets": 1037,
      "propped": 1038,
      "shepher": 1039,
      "cushion": 1040,
      "fabric": 1041,
      "windows": 1042,
      "skateboarding": 1043,
      "notepads": 1044,
      "banana": 1045,
      "clad": 1046,
      "goalie": 1047,
      "motorcyc": 1048,
      "excitedly": 1049,
      "Seiko": 1050,
      "crisp": 1051,
      "ended": 1052,
      "peers": 1053,
      "retriever": 1054,
      "sleeves": 1055,
      "beginning": 1056,
      "squatting": 1057,
      "Adoles": 1058,
      "Bicyclists": 1059,
      "Construction": 1060,
      "German": 1061,
      "John": 1062,
      "Outside": 1063,
      "eatery": 1064,
      "kayak": 1065,
      "separating": 1066,
      "slope": 1067,
      "slightly": 1068,
      "dotted": 1069,
      "redheaded": 1070,
      "through": 1071,
      "interesting": 1072,
      "consisting": 1073,
      "crystal": 1074,
      "shepherd": 1075,
      "Adolescent": 1076,
      "dr": 1077,
      "##get": 1078,
      "beach": 1079,
      "draw": 1080,
      "getting": 1081,
      "mark": 1082,
      "Sh": 1083,
      "##ach": 1084,
      "##ine": 1085,
      "couple": 1086,
      "motorcycle": 1087,
      "marker": 1088,
      "tra": 1089,
      "##pie": 1090,
      "##ant": 1091,
      "##arpie": 1092,
      "stage": 1093,
      "drawing": 1094,
      "Sharpie": 1095,
      "com": 1096,
      "wood": 1097,
      "toget": 1098,
      "coat": 1099,
      "older": 1100,
      "together": 1101,
      "Man": 1102,
      "##shing": 1103,
      "plays": 1104,
      "fountain": 1105,
      "##ip": 1106,
      "##ight": 1107,
      "##mer": 1108,
      "su": 1109,
      "##ool": 1110,
      "hands": 1111,
      "drin": 1112,
      "en": 1113,
      "bru": 1114,
      "##cut": 1115,
      "##rying": 1116,
      "##oot": 1117,
      "##ell": 1118,
      "haircut": 1119,
      "performing": 1120,
      "head": 1121,
      "br": 1122,
      "de": 1123,
      "rest": 1124,
      "se": 1125,
      "##aur": 1126,
      "##ct": 1127,
      "stand": 1128,
      "##eth": 1129,
      "##cks": 1130,
      "swims": 1131,
      "fire": 1132,
      "teeth": 1133,
      "all": 1134,
      "player": 1135,
      "##everal": 1136,
      "brushing": 1137,
      "each": 1138,
      "him": 1139,
      "tri": 1140,
      "##ne": 1141,
      "##ped": 1142,
      "##ol": 1143,
      "##iti": 1144,
      "graff": 1145,
      "##lder": 1146,
      "phone": 1147,
      "teams": 1148,
      "performs": 1149,
      "wooden": 1150,
      "drinking": 1151,
      "restaur": 1152,
      "graffiti": 1153,
      "restaurant": 1154,
      "des": 1155,
      "fl": 1156,
      "sl": 1157,
      "und": 1158,
      "##ny": 1159,
      "##ner": 1160,
      "##jo": 1161,
      "##hers": 1162,
      "many": 1163,
      "players": 1164,
      "##lderly": 1165,
      "under": 1166,
      "book": 1167,
      "di": 1168,
      "elderly": 1169,
      "op": 1170,
      "sp": 1171,
      "##ading": 1172,
      "##aking": 1173,
      "boys": 1174,
      "carrying": 1175,
      "comp": 1176,
      "enjo": 1177,
      "\"\"": 1178,
      "dis": 1179,
      "foot": 1180,
      "par": 1181,
      "win": 1182,
      "##ps": 1183,
      "##oor": 1184,
      "swinging": 1185,
      "##ches": 1186,
      "wheel": 1187,
      "striped": 1188,
      "enjoying": 1189,
      "Several": 1190,
      "cell": 1191,
      "food": 1192,
      "jog": 1193,
      "mus": 1194,
      "making": 1195,
      "spe": 1196,
      "un": 1197,
      "##ars": 1198,
      "##ation": 1199,
      "##ings": 1200,
      "stick": 1201,
      "##ork": 1202,
      "watch": 1203,
      "brick": 1204,
      "cove": 1205,
      "having": 1206,
      "others": 1207,
      "skating": 1208,
      "middle": 1209,
      "reading": 1210,
      "floor": 1211,
      "slide": 1212,
      "cellphone": 1213,
      "music": 1214,
      "covered": 1215,
      "ag": 1216,
      "lo": 1217,
      "line": 1218,
      "mar": 1219,
      "ten": 1220,
      "##are": 1221,
      "##ies": 1222,
      "##ifor": 1223,
      "##nis": 1224,
      "##ter": 1225,
      "##ke": 1226,
      "##als": 1227,
      "being": 1228,
      "shoes": 1229,
      "lea": 1230,
      "sunny": 1231,
      "sweater": 1232,
      "suit": 1233,
      "jogging": 1234,
      "unifor": 1235,
      "tennis": 1236,
      "coo": 1237,
      "cor": 1238,
      "gat": 1239,
      "its": 1240,
      "ju": 1241,
      "me": 1242,
      "oce": 1243,
      "pl": 1244,
      "pile": 1245,
      "sand": 1246,
      "using": 1247,
      "ve": 1248,
      "##ors": 1249,
      "##ud": 1250,
      "##co": 1251,
      "##cu": 1252,
      "##idge": 1253,
      "##ull": 1254,
      "##ates": 1255,
      "##ill": 1256,
      "pose": 1257,
      "smile": 1258,
      "bowl": 1259,
      "fishing": 1260,
      "lawn": 1261,
      "bridge": 1262,
      "desk": 1263,
      "open": 1264,
      "ocean": 1265,
      "Kids": 1266,
      "Ne": 1267,
      "bat": 1268,
      "big": 1269,
      "cle": 1270,
      "during": 1271,
      "ed": 1272,
      "ele": 1273,
      "hel": 1274,
      "pre": 1275,
      "pool": 1276,
      "##airs": 1277,
      "##een": 1278,
      "##ous": 1279,
      "##cking": 1280,
      "##te": 1281,
      "##mb": 1282,
      "##ane": 1283,
      "##ines": 1284,
      "##ley": 1285,
      "##uter": 1286,
      "##end": 1287,
      "##tic": 1288,
      "##rol": 1289,
      "runs": 1290,
      "bot": 1291,
      "##stum": 1292,
      "##imb": 1293,
      "##ican": 1294,
      "##ade": 1295,
      "instruments": 1296,
      "guy": 1297,
      "costum": 1298,
      "look": 1299,
      "going": 1300,
      "sax": 1301,
      "skirt": 1302,
      "airp": 1303,
      "climb": 1304,
      "clothing": 1305,
      "surfer": 1306,
      "racing": 1307,
      "##ctric": 1308,
      "computer": 1309,
      "cooking": 1310,
      "New": 1311,
      "edge": 1312,
      "electric": 1313,
      "Men": 1314,
      "One": 1315,
      "York": 1316,
      "but": 1317,
      "din": 1318,
      "day": 1319,
      "full": 1320,
      "hood": 1321,
      "na": 1322,
      "sch": 1323,
      "tru": 1324,
      "##vers": 1325,
      "##ire": 1326,
      "##na": 1327,
      "##gg": 1328,
      "##gon": 1329,
      "##paring": 1330,
      "##line": 1331,
      "##ophone": 1332,
      "##tain": 1333,
      "##kes": 1334,
      "##fric": 1335,
      "##fight": 1336,
      "They": 1337,
      "does": 1338,
      "##atsh": 1339,
      "##sten": 1340,
      "##ime": 1341,
      "watches": 1342,
      "##urf": 1343,
      "##ike": 1344,
      "##dsurf": 1345,
      "wagon": 1346,
      "listen": 1347,
      "##acks": 1348,
      "bus": 1349,
      "rock": 1350,
      "rocks": 1351,
      "##ffic": 1352,
      "jumps": 1353,
      "dance": 1354,
      "sweatsh": 1355,
      "throwing": 1356,
      "couch": 1357,
      "rais": 1358,
      "track": 1359,
      "traffic": 1360,
      "Many": 1361,
      "firefight": 1362,
      "trick": 1363,
      "dire": 1364,
      "windsurf": 1365,
      "uniform": 1366,
      "corner": 1367,
      "preparing": 1368,
      "saxophone": 1369,
      "school": 1370,
      "truck": 1371,
      "sweatshirt": 1372,
      "Amer": 1373,
      "Ind": 1374,
      "Squ": 1375,
      "Tim": 1376,
      "Vol": 1377,
      "aft": 1378,
      "bel": 1379,
      "cre": 1380,
      "dist": 1381,
      "fing": 1382,
      "lying": 1383,
      "lot": 1384,
      "no": 1385,
      "night": 1386,
      "ri": 1387,
      "right": 1388,
      "set": 1389,
      "sil": 1390,
      "several": 1391,
      "time": 1392,
      "umb": 1393,
      "zip": 1394,
      "##vo": 1395,
      "##ial": 1396,
      "##pla": 1397,
      "##pet": 1398,
      "##lla": 1399,
      "##ou": 1400,
      "##uit": 1401,
      "##ugh": 1402,
      "##urse": 1403,
      "##cts": 1404,
      "##di": 1405,
      "##to": 1406,
      "##too": 1407,
      "##ted": 1408,
      "##yard": 1409,
      "##mel": 1410,
      "##fit": 1411,
      "##hed": 1412,
      "##aning": 1413,
      "##rella": 1414,
      "outfit": 1415,
      "ste": 1416,
      "##alm": 1417,
      "they": 1418,
      "##lax": 1419,
      "##art": 1420,
      "##ents": 1421,
      "##unch": 1422,
      "##ery": 1423,
      "##attoo": 1424,
      "show": 1425,
      "swing": 1426,
      "##cked": 1427,
      "##ils": 1428,
      "##ical": 1429,
      "##icking": 1430,
      "##elc": 1431,
      "watermel": 1432,
      "##urn": 1433,
      "carpet": 1434,
      "wait": 1435,
      "##ainst": 1436,
      "convers": 1437,
      "backp": 1438,
      "snowy": 1439,
      "##ffe": 1440,
      "##ppy": 1441,
      "sky": 1442,
      "chess": 1443,
      "checks": 1444,
      "arm": 1445,
      "read": 1446,
      "relax": 1447,
      "store": 1448,
      "cup": 1449,
      "heads": 1450,
      "facing": 1451,
      "window": 1452,
      "skateboard": 1453,
      "laund": 1454,
      "laugh": 1455,
      "drink": 1456,
      "supp": 1457,
      "seated": 1458,
      "discu": 1459,
      "winter": 1460,
      "against": 1461,
      "leaves": 1462,
      "gather": 1463,
      "smiles": 1464,
      "costume": 1465,
      "dinner": 1466,
      "##frican": 1467,
      "American": 1468,
      "Indian": 1469,
      "Square": 1470,
      "Times": 1471,
      "Volvo": 1472,
      "after": 1473,
      "distance": 1474,
      "umbrella": 1475,
      "watermelon": 1476,
      "discuss": 1477,
      "Ch": 1478,
      "King": 1479,
      "Lion": 1480,
      "Some": 1481,
      "Work": 1482,
      "acc": 1483,
      "bar": 1484,
      "bet": 1485,
      "cow": 1486,
      "cross": 1487,
      "ev": 1488,
      "far": 1489,
      "fun": 1490,
      "fri": 1491,
      "good": 1492,
      "gets": 1493,
      "hit": 1494,
      "hug": 1495,
      "hill": 1496,
      "ice": 1497,
      "kn": 1498,
      "kh": 1499,
      "like": 1500,
      "met": 1501,
      "mat": 1502,
      "med": 1503,
      "mother": 1504,
      "mach": 1505,
      "nurse": 1506,
      "ob": 1507,
      "por": 1508,
      "pot": 1509,
      "pie": 1510,
      "pus": 1511,
      "row": 1512,
      "rug": 1513,
      "sy": 1514,
      "sets": 1515,
      "setting": 1516,
      "sings": 1517,
      "ti": 1518,
      "tattoo": 1519,
      "vi": 1520,
      "we": 1521,
      "wr": 1522,
      "yog": 1523,
      "##ag": 1524,
      "##able": 1525,
      "##ier": 1526,
      "##ige": 1527,
      "##ired": 1528,
      "##gs": 1529,
      "##gress": 1530,
      "##pr": 1531,
      "##per": 1532,
      "##ls": 1533,
      "##ses": 1534,
      "##sel": 1535,
      "##stic": 1536,
      "##hic": 1537,
      "##ue": 1538,
      "##cher": 1539,
      "##cial": 1540,
      "##deo": 1541,
      "##der": 1542,
      "##dly": 1543,
      "##bble": 1544,
      "##way": 1545,
      "##ween": 1546,
      "##je": 1547,
      "##ret": 1548,
      "##ler": 1549,
      "##ition": 1550,
      "step": 1551,
      "stru": 1552,
      "stud": 1553,
      "strol": 1554,
      "##oods": 1555,
      "##arf": 1556,
      "##ones": 1557,
      "ship": 1558,
      "box": 1559,
      "board": 1560,
      "whic": 1561,
      "bag": 1562,
      "hot": 1563,
      "how": 1564,
      "house": 1565,
      "blo": 1566,
      "blow": 1567,
      "streets": 1568,
      "beige": 1569,
      "##urt": 1570,
      "wake": 1571,
      "cover": 1572,
      "court": 1573,
      "poles": 1574,
      "##list": 1575,
      "##lies": 1576,
      "haired": 1577,
      "##boy": 1578,
      "##rent": 1579,
      "cones": 1580,
      "backyard": 1581,
      "##pears": 1582,
      "room": 1583,
      "rodeo": 1584,
      "form": 1585,
      "##aki": 1586,
      "crates": 1587,
      "neck": 1588,
      "##pping": 1589,
      "alley": 1590,
      "grassy": 1591,
      "playground": 1592,
      "skier": 1593,
      "photo": 1594,
      "photographs": 1595,
      "leaning": 1596,
      "pass": 1597,
      "cho": 1598,
      "chairs": 1599,
      "progress": 1600,
      "rec": 1601,
      "captain": 1602,
      "appears": 1603,
      "rail": 1604,
      "##getable": 1605,
      "sec": 1606,
      "tries": 1607,
      "##olin": 1608,
      "diffe": 1609,
      "spla": 1610,
      "compet": 1611,
      "displa": 1612,
      "football": 1613,
      "part": 1614,
      "wheelch": 1615,
      "market": 1616,
      "suitcase": 1617,
      "juice": 1618,
      "meat": 1619,
      "sandy": 1620,
      "vehic": 1621,
      "vegetable": 1622,
      "##cope": 1623,
      "helm": 1624,
      "bottle": 1625,
      "airport": 1626,
      "climbing": 1627,
      "listening": 1628,
      "direction": 1629,
      "windsurfing": 1630,
      "silver": 1631,
      "##elcome": 1632,
      "backpack": 1633,
      "supplies": 1634,
      "gathering": 1635,
      "Workers": 1636,
      "between": 1637,
      "cowboy": 1638,
      "event": 1639,
      "khaki": 1640,
      "metal": 1641,
      "porch": 1642,
      "piece": 1643,
      "violin": 1644,
      "wears": 1645,
      "writing": 1646,
      "yoga": 1647,
      "which": 1648,
      "different": 1649,
      "vehicle": 1650,
      "African": 1651,
      "Bo": 1652,
      "Bru": 1653,
      "Frisbee": 1654,
      "Go": 1655,
      "Group": 1656,
      "So": 1657,
      "St": 1658,
      "Spr": 1659,
      "Walm": 1660,
      "Welcome": 1661,
      "ass": 1662,
      "bre": 1663,
      "bell": 1664,
      "cree": 1665,
      "cur": 1666,
      "crou": 1667,
      "clo": 1668,
      "class": 1669,
      "dig": 1670,
      "eat": 1671,
      "emer": 1672,
      "fall": 1673,
      "flo": 1674,
      "gar": 1675,
      "gent": 1676,
      "gun": 1677,
      "gian": 1678,
      "groom": 1679,
      "held": 1680,
      "jerse": 1681,
      "ke": 1682,
      "kid": 1683,
      "lane": 1684,
      "lunch": 1685,
      "mak": 1686,
      "made": 1687,
      "pit": 1688,
      "pir": 1689,
      "pat": 1690,
      "ringing": 1691,
      "rice": 1692,
      "ser": 1693,
      "sum": 1694,
      "tr": 1695,
      "tent": 1696,
      "tile": 1697,
      "tub": 1698,
      "trying": 1699,
      "turn": 1700,
      "war": 1701,
      "wres": 1702,
      "woods": 1703,
      "##ast": 1704,
      "##asing": 1705,
      "##ved": 1706,
      "##ix": 1707,
      "##gers": 1708,
      "##pan": 1709,
      "##ping": 1710,
      "##lane": 1711,
      "##set": 1712,
      "##scope": 1713,
      "##hip": 1714,
      "##ore": 1715,
      "##up": 1716,
      "##ure": 1717,
      "##ures": 1718,
      "##ust": 1719,
      "##uri": 1720,
      "##cer": 1721,
      "##ced": 1722,
      "##carf": 1723,
      "##ber": 1724,
      "##men": 1725,
      "##ken": 1726,
      "##water": 1727,
      "##fla": 1728,
      "##ingst": 1729,
      "##leep": 1730,
      "##eon": 1731,
      "##eone": 1732,
      "##ends": 1733,
      "door": 1734,
      "doors": 1735,
      "##rship": 1736,
      "str": 1737,
      "stat": 1738,
      "straw": 1739,
      "##ara": 1740,
      "##ary": 1741,
      "##unt": 1742,
      "##tim": 1743,
      "onto": 1744,
      "plat": 1745,
      "plaid": 1746,
      "place": 1747,
      "plastic": 1748,
      "##ators": 1749,
      "##stom": 1750,
      "what": 1751,
      "##iming": 1752,
      "##ord": 1753,
      "toy": 1754,
      "swimmer": 1755,
      "##ish": 1756,
      "##mentators": 1757,
      "hold": 1758,
      "beside": 1759,
      "beads": 1760,
      "##itary": 1761,
      "younger": 1762,
      "way": 1763,
      "waves": 1764,
      "##ture": 1765,
      "brightly": 1766,
      "##alership": 1767,
      "have": 1768,
      "takes": 1769,
      "microscope": 1770,
      "##box": 1771,
      "smo": 1772,
      "dresses": 1773,
      "scoot": 1774,
      "##peting": 1775,
      "##umb": 1776,
      "camp": 1777,
      "teen": 1778,
      "asleep": 1779,
      "gold": 1780,
      "##estri": 1781,
      "ladies": 1782,
      "cars": 1783,
      "cafe": 1784,
      "alone": 1785,
      "played": 1786,
      "flowers": 1787,
      "legs": 1788,
      "check": 1789,
      "cheerleaders": 1790,
      "sunset": 1791,
      "paper": 1792,
      "chair": 1793,
      "dances": 1794,
      "##form": 1795,
      "reach": 1796,
      "cane": 1797,
      "##mance": 1798,
      "pastry": 1799,
      "performance": 1800,
      "custom": 1801,
      "##arious": 1802,
      "among": 1803,
      "shops": 1804,
      "balan": 1805,
      "railing": 1806,
      "motorcyclist": 1807,
      "trail": 1808,
      "commentators": 1809,
      "competing": 1810,
      "drinks": 1811,
      "bride": 1812,
      "dev": 1813,
      "deep": 1814,
      "dealership": 1815,
      "sea": 1816,
      "sliding": 1817,
      "underwater": 1818,
      "parade": 1819,
      "wheelie": 1820,
      "speed": 1821,
      "slides": 1822,
      "aged": 1823,
      "uniforms": 1824,
      "just": 1825,
      "meal": 1826,
      "plant": 1827,
      "clear": 1828,
      "##inese": 1829,
      "both": 1830,
      "airplane": 1831,
      "rocky": 1832,
      "raised": 1833,
      "firefighter": 1834,
      "firefighters": 1835,
      "river": 1836,
      "zipline": 1837,
      "##diving": 1838,
      "conversation": 1839,
      "skydiving": 1840,
      "headscarf": 1841,
      "laundry": 1842,
      "laughing": 1843,
      "umbrellas": 1844,
      "watermelons": 1845,
      "discussion": 1846,
      "farmer": 1847,
      "funny": 1848,
      "friends": 1849,
      "hugging": 1850,
      "medical": 1851,
      "machine": 1852,
      "obje": 1853,
      "pushing": 1854,
      "rugby": 1855,
      "steps": 1856,
      "wakeboarding": 1857,
      "formal": 1858,
      "choppy": 1859,
      "competition": 1860,
      "wheelchairs": 1861,
      "vegetables": 1862,
      "helmet": 1863,
      "Bruce": 1864,
      "Golden": 1865,
      "Soccer": 1866,
      "Springst": 1867,
      "Walmart": 1868,
      "creek": 1869,
      "gentle": 1870,
      "giant": 1871,
      "jerseys": 1872,
      "makes": 1873,
      "pirate": 1874,
      "wrestle": 1875,
      "##urists": 1876,
      "scooter": 1877,
      "Springsteen": 1878,
      "Be": 1879,
      "Black": 1880,
      "Bus": 1881,
      "Cross": 1882,
      "City": 1883,
      "Do": 1884,
      "Dog": 1885,
      "Gra": 1886,
      "In": 1887,
      "Li": 1888,
      "Mot": 1889,
      "Not": 1890,
      "Ro": 1891,
      "Rep": 1892,
      "Sm": 1893,
      "Stu": 1894,
      "Wh": 1895,
      "action": 1896,
      "aud": 1897,
      "african": 1898,
      "aiming": 1899,
      "bi": 1900,
      "boo": 1901,
      "bra": 1902,
      "bur": 1903,
      "biting": 1904,
      "bunch": 1905,
      "cent": 1906,
      "cer": 1907,
      "cul": 1908,
      "cro": 1909,
      "call": 1910,
      "cra": 1911,
      "cyc": 1912,
      "cook": 1913,
      "dru": 1914,
      "dry": 1915,
      "equ": 1916,
      "fin": 1917,
      "fla": 1918,
      "fres": 1919,
      "fet": 1920,
      "fro": 1921,
      "fur": 1922,
      "fans": 1923,
      "flor": 1924,
      "gr": 1925,
      "gy": 1926,
      "get": 1927,
      "gear": 1928,
      "got": 1929,
      "gest": 1930,
      "hall": 1931,
      "hum": 1932,
      "ir": 1933,
      "kis": 1934,
      "kicking": 1935,
      "lit": 1936,
      "led": 1937,
      "lone": 1938,
      "lug": 1939,
      "mon": 1940,
      "mone": 1941,
      "mee": 1942,
      "mows": 1943,
      "make": 1944,
      "neon": 1945,
      "ori": 1946,
      "pu": 1947,
      "pra": 1948,
      "prou": 1949,
      "pump": 1950,
      "qu": 1951,
      "res": 1952,
      "roun": 1953,
      "rows": 1954,
      "rub": 1955,
      "son": 1956,
      "sel": 1957,
      "sad": 1958,
      "sale": 1959,
      "same": 1960,
      "sip": 1961,
      "ty": 1962,
      "tall": 1963,
      "tie": 1964,
      "tool": 1965,
      "trol": 1966,
      "ump": 1967,
      "van": 1968,
      "very": 1969,
      "various": 1970,
      "wide": 1971,
      "wed": 1972,
      "yard": 1973,
      "zone": 1974,
      "##av": 1975,
      "##aming": 1976,
      "##aks": 1977,
      "##aff": 1978,
      "##aching": 1979,
      "##val": 1980,
      "##vie": 1981,
      "##vine": 1982,
      "##io": 1983,
      "##ium": 1984,
      "##ift": 1985,
      "##ience": 1986,
      "##ious": 1987,
      "##ns": 1988,
      "##nel": 1989,
      "##gan": 1990,
      "##ger": 1991,
      "##ged": 1992,
      "##gate": 1993,
      "##gage": 1994,
      "##pers": 1995,
      "##land": 1996,
      "##ered": 1997,
      "##sium": 1998,
      "##oc": 1999,
      "##out": 2000,
      "##own": 2001,
      "##olic": 2002,
      "##uck": 2003,
      "##cl": 2004,
      "##cy": 2005,
      "##cti": 2006,
      "##con": 2007,
      "##coh": 2008,
      "##cture": 2009,
      "##des": 2010,
      "##dling": 2011,
      "##dents": 2012,
      "##ddly": 2013,
      "##ten": 2014,
      "##rom": 2015,
      "##bs": 2016,
      "##ban": 2017,
      "##mun": 2018,
      "##mbo": 2019,
      "##mna": 2020,
      "##ky": 2021,
      "##kin": 2022,
      "##foot": 2023,
      "##fire": 2024,
      "##fore": 2025,
      "##.\"": 2026,
      "##hered": 2027,
      "##anket": 2028,
      "##ini": 2029,
      "##reaming": 2030,
      "manic": 2031,
      "##let": 2032,
      "##lers": 2033,
      "arena": 2034,
      "##eous": 2035,
      "intim": 2036,
      "##itors": 2037,
      "##engers": 2038,
      "dot": 2039,
      "dock": 2040,
      "doct": 2041,
      "##ombox": 2042,
      "sty": 2043,
      "star": 2044,
      "stone": 2045,
      "stool": 2046,
      "still": 2047,
      "sticking": 2048,
      "stones": 2049,
      "stunt": 2050,
      "##alt": 2051,
      "thems": 2052,
      "##oops": 2053,
      "##laz": 2054,
      "##ental": 2055,
      "##ention": 2056,
      "##eption": 2057,
      "##unk": 2058,
      "##erican": 2059,
      "plaza": 2060,
      "plate": 2061,
      "multico": 2062,
      "##aters": 2063,
      "##atel": 2064,
      "##ather": 2065,
      "shot": 2066,
      "share": 2067,
      "##wor": 2068,
      "boombox": 2069,
      "##ckers": 2070,
      "tou": 2071,
      "tow": 2072,
      "##edestri": 2073,
      "bagg": 2074,
      "##rip": 2075,
      "##ries": 2076,
      "blanket": 2077,
      "##rubs": 2078,
      "##elves": 2079,
      "personnel": 2080,
      "##ady": 2081,
      "##aded": 2082,
      "##iler": 2083,
      "##amic": 2084,
      "##hill": 2085,
      "beret": 2086,
      "before": 2087,
      "##otation": 2088,
      "##urity": 2089,
      "cards": 2090,
      "carry": 2091,
      "carries": 2092,
      "this": 2093,
      "things": 2094,
      "##phones": 2095,
      "frying": 2096,
      "wave": 2097,
      "bikini": 2098,
      "driver": 2099,
      "someone": 2100,
      "liqu": 2101,
      "polo": 2102,
      "pouring": 2103,
      "poses": 2104,
      "works": 2105,
      "worker": 2106,
      "This": 2107,
      "shoul": 2108,
      "shopping": 2109,
      "bump": 2110,
      "bucking": 2111,
      "##ians": 2112,
      "happ": 2113,
      "tape": 2114,
      "cont": 2115,
      "scaff": 2116,
      "screaming": 2117,
      "snowball": 2118,
      "##velers": 2119,
      "bicyclists": 2120,
      "picking": 2121,
      "camou": 2122,
      "##dles": 2123,
      "painted": 2124,
      "##aker": 2125,
      "crate": 2126,
      "asking": 2127,
      "##wards": 2128,
      "acting": 2129,
      "toward": 2130,
      "talk": 2131,
      "order": 2132,
      "##ays": 2133,
      "handling": 2134,
      "alcoh": 2135,
      "save": 2136,
      "##athon": 2137,
      "washing": 2138,
      "balls": 2139,
      "Women": 2140,
      "skaters": 2141,
      "mountains": 2142,
      "rides": 2143,
      "rider": 2144,
      "station": 2145,
      "flower": 2146,
      "flowery": 2147,
      "attend": 2148,
      "attention": 2149,
      "pran": 2150,
      "shade": 2151,
      "leather": 2152,
      "chef": 2153,
      "checking": 2154,
      "chain": 2155,
      "chasing": 2156,
      "chinese": 2157,
      "danger": 2158,
      "ite": 2159,
      "art": 2160,
      "broken": 2161,
      "jean": 2162,
      "perfe": 2163,
      "perman": 2164,
      "mod": 2165,
      "most": 2166,
      "move": 2167,
      "movie": 2168,
      "cloth": 2169,
      "clothed": 2170,
      "process": 2171,
      "rev": 2172,
      "reg": 2173,
      "reaching": 2174,
      "sheep": 2175,
      "##ister": 2176,
      "cann": 2177,
      "catcher": 2178,
      "adult": 2179,
      "balloons": 2180,
      "american": 2181,
      "Tourists": 2182,
      "military": 2183,
      "##erless": 2184,
      "appro": 2185,
      "pulled": 2186,
      "paddling": 2187,
      "shoreline": 2188,
      "bearded": 2189,
      "counter": 2190,
      "paddles": 2191,
      "father": 2192,
      "lifted": 2193,
      "logo": 2194,
      "lap": 2195,
      "laying": 2196,
      "ravine": 2197,
      "train": 2198,
      "trailer": 2199,
      "travelers": 2200,
      "commun": 2201,
      "woodland": 2202,
      "coats": 2203,
      "##ipment": 2204,
      "sure": 2205,
      "bron": 2206,
      "dec": 2207,
      "dem": 2208,
      "##neath": 2209,
      "##olding": 2210,
      "desc": 2211,
      "flotation": 2212,
      "underneath": 2213,
      "opera": 2214,
      "spor": 2215,
      "sport": 2216,
      "\"\".\"": 2217,
      "speaking": 2218,
      "speaks": 2219,
      "speaker": 2220,
      "lockers": 2221,
      "marathon": 2222,
      "leaf": 2223,
      "corn": 2224,
      "gathered": 2225,
      "plants": 2226,
      "sandals": 2227,
      "opening": 2228,
      "helps": 2229,
      "costumes": 2230,
      "hooded": 2231,
      "hoodies": 2232,
      "nails": 2233,
      "##ggling": 2234,
      "busy": 2235,
      "raise": 2236,
      "sweatshirts": 2237,
      "below": 2238,
      "crew": 2239,
      "create": 2240,
      "fingers": 2241,
      "fingerless": 2242,
      "lots": 2243,
      "nose": 2244,
      "steering": 2245,
      "showing": 2246,
      "waits": 2247,
      "conversing": 2248,
      "chessboard": 2249,
      "ready": 2250,
      "relaxing": 2251,
      "laundrom": 2252,
      "discussing": 2253,
      "barber": 2254,
      "kno": 2255,
      "knit": 2256,
      "syn": 2257,
      "symbo": 2258,
      "tied": 2259,
      "tiara": 2260,
      "##sely": 2261,
      "struggling": 2262,
      "stroller": 2263,
      "block": 2264,
      "blowing": 2265,
      "covering": 2266,
      "neckla": 2267,
      "passing": 2268,
      "passengers": 2269,
      "reception": 2270,
      "security": 2271,
      "splashing": 2272,
      "displays": 2273,
      "violinist": 2274,
      "assort": 2275,
      "break": 2276,
      "closely": 2277,
      "classroom": 2278,
      "digging": 2279,
      "emerging": 2280,
      "falling": 2281,
      "floating": 2282,
      "garb": 2283,
      "keep": 2284,
      "patch": 2285,
      "serving": 2286,
      "tube": 2287,
      "warm": 2288,
      "##flage": 2289,
      "statue": 2290,
      "platform": 2291,
      "smokes": 2292,
      "campfire": 2293,
      "customers": 2294,
      "balancing": 2295,
      "device": 2296,
      "object": 2297,
      "gentleman": 2298,
      "wrestler": 2299,
      "Busy": 2300,
      "Small": 2301,
      "Students": 2302,
      "White": 2303,
      "audience": 2304,
      "biking": 2305,
      "center": 2306,
      "ceramic": 2307,
      "drum": 2308,
      "equipment": 2309,
      "fresh": 2310,
      "furry": 2311,
      "floral": 2312,
      "gymna": 2313,
      "gotten": 2314,
      "gestures": 2315,
      "luggage": 2316,
      "monitors": 2317,
      "money": 2318,
      "meeting": 2319,
      "oriental": 2320,
      "practi": 2321,
      "proudly": 2322,
      "pumpkin": 2323,
      "round": 2324,
      "rubs": 2325,
      "selling": 2326,
      "saddle": 2327,
      "sips": 2328,
      "type": 2329,
      "trolley": 2330,
      "umpire": 2331,
      "wedding": 2332,
      "intimate": 2333,
      "doctor": 2334,
      "themselves": 2335,
      "multicolored": 2336,
      "##ately": 2337,
      "liquid": 2338,
      "bumper": 2339,
      "happily": 2340,
      "scaffolding": 2341,
      "camouflage": 2342,
      "attendant": 2343,
      "perfect": 2344,
      "permanent": 2345,
      "community": 2346,
      "laundromat": 2347,
      "gymnasium": 2348,
      "!\"": 2349,
      "Ars": 2350,
      "BM": 2351,
      "Bro": 2352,
      "Bik": 2353,
      "Bare": 2354,
      "Bull": 2355,
      "Bish": 2356,
      "Cly": 2357,
      "Cra": 2358,
      "Count": 2359,
      "Clo": 2360,
      "Cath": 2361,
      "Cars": 2362,
      "De": 2363,
      "Ex": 2364,
      "Emer": 2365,
      "Elderly": 2366,
      "East": 2367,
      "Ens": 2368,
      "Fe": 2369,
      "For": 2370,
      "Fel": 2371,
      "Fans": 2372,
      "Ford": 2373,
      "Gu": 2374,
      "Hi": 2375,
      "He": 2376,
      "His": 2377,
      "High": 2378,
      "Ja": 2379,
      "Le": 2380,
      "Land": 2381,
      "Lou": 2382,
      "Loc": 2383,
      "Lady": 2384,
      "MP": 2385,
      "Mon": 2386,
      "Mor": 2387,
      "Mil": 2388,
      "Mard": 2389,
      "Mus": 2390,
      "Nation": 2391,
      "Oly": 2392,
      "Over": 2393,
      "Old": 2394,
      "Older": 2395,
      "Oddly": 2396,
      "Ph": 2397,
      "Po": 2398,
      "Pit": 2399,
      "Pla": 2400,
      "Pic": 2401,
      "Pow": 2402,
      "Pak": 2403,
      "Pedestri": 2404,
      "Run": 2405,
      "Sa": 2406,
      "Som": 2407,
      "Spe": 2408,
      "Six": 2409,
      "Sky": 2410,
      "Te": 2411,
      "Tour": 2412,
      "Tattoo": 2413,
      "Trip": 2414,
      "US": 2415,
      "Vuit": 2416,
      "Various": 2417,
      "Wet": 2418,
      "av": 2419,
      "aer": 2420,
      "airl": 2421,
      "ais": 2422,
      "aver": 2423,
      "ahead": 2424,
      "auto": 2425,
      "afric": 2426,
      "affe": 2427,
      "bm": 2428,
      "bin": 2429,
      "bit": 2430,
      "bul": 2431,
      "bind": 2432,
      "brow": 2433,
      "bull": 2434,
      "blaz": 2435,
      "ci": 2436,
      "ce": 2437,
      "cit": 2438,
      "cal": 2439,
      "cir": 2440,
      "cru": 2441,
      "cand": 2442,
      "cake": 2443,
      "craw": 2444,
      "calm": 2445,
      "den": 2446,
      "dun": 2447,
      "dro": 2448,
      "dim": 2449,
      "del": 2450,
      "dra": 2451,
      "dest": 2452,
      "dump": 2453,
      "dug": 2454,
      "dus": 2455,
      "dining": 2456,
      "el": 2457,
      "ever": 2458,
      "ext": 2459,
      "emp": 2460,
      "emb": 2461,
      "fu": 2462,
      "fan": 2463,
      "fid": 2464,
      "fen": 2465,
      "fer": 2466,
      "ful": 2467,
      "fes": 2468,
      "fly": 2469,
      "gi": 2470,
      "gro": 2471,
      "gor": 2472,
      "greet": 2473,
      "gog": 2474,
      "gyro": 2475,
      "gently": 2476,
      "goods": 2477,
      "glaz": 2478,
      "grip": 2479,
      "hun": 2480,
      "hear": 2481,
      "hor": 2482,
      "had": 2483,
      "hur": 2484,
      "hind": 2485,
      "hard": 2486,
      "hook": 2487,
      "hist": 2488,
      "hike": 2489,
      "il": 2490,
      "if": 2491,
      "iP": 2492,
      "jo": 2493,
      "jets": 2494,
      "junk": 2495,
      "kar": 2496,
      "kite": 2497,
      "kind": 2498,
      "kne": 2499,
      "lan": 2500,
      "lear": 2501,
      "loung": 2502,
      "link": 2503,
      "lay": 2504,
      "land": 2505,
      "lets": 2506,
      "lines": 2507,
      "lime": 2508,
      "licking": 2509,
      "mir": 2510,
      "mis": 2511,
      "main": 2512,
      "mount": 2513,
      "may": 2514,
      "mater": 2515,
      "might": 2516,
      "mars": 2517,
      "mix": 2518,
      "must": 2519,
      "non": 2520,
      "nat": 2521,
      "nice": 2522,
      "numb": 2523,
      "occ": 2524,
      "opp": 2525,
      "oddly": 2526,
      "pan": 2527,
      "pin": 2528,
      "pen": 2529,
      "pal": 2530,
      "pun": 2531,
      "pet": 2532,
      "pil": 2533,
      "pri": 2534,
      "ply": 2535,
      "pack": 2536,
      "pay": 2537,
      "pond": 2538,
      "pick": 2539,
      "petting": 2540,
      "pizza": 2541,
      "poor": 2542,
      "pend": 2543,
      "packs": 2544,
      "purse": 2545,
      "palm": 2546,
      "pedestri": 2547,
      "ru": 2548,
      "roo": 2549,
      "rim": 2550,
      "ris": 2551,
      "ram": 2552,
      "rink": 2553,
      "rip": 2554,
      "si": 2555,
      "sin": 2556,
      "sing": 2557,
      "sen": 2558,
      "sal": 2559,
      "sla": 2560,
      "sear": 2561,
      "sund": 2562,
      "slow": 2563,
      "see": 2564,
      "sig": 2565,
      "sub": 2566,
      "siz": 2567,
      "sight": 2568,
      "sell": 2569,
      "sacks": 2570,
      "six": 2571,
      "says": 2572,
      "sister": 2573,
      "tw": 2574,
      "tide": 2575,
      "ter": 2576,
      "tet": 2577,
      "tur": 2578,
      "tum": 2579,
      "tong": 2580,
      "try": 2581,
      "tug": 2582,
      "tire": 2583,
      "tents": 2584,
      "tumb": 2585,
      "us": 2586,
      "ur": 2587,
      "uti": 2588,
      "use": 2589,
      "uses": 2590,
      "val": 2591,
      "vil": 2592,
      "ves": 2593,
      "vis": 2594,
      "vend": 2595,
      "went": 2596,
      "wil": 2597,
      "wri": 2598,
      "wra": 2599,
      "wets": 2600,
      "wrest": 2601,
      "wine": 2602,
      "welc": 2603,
      "welcome": 2604,
      "yar": 2605,
      "your": 2606,
      "you": 2607,
      "zom": 2608,
      "##ai": 2609,
      "##as": 2610,
      "##aT": 2611,
      "##ass": 2612,
      "##aphone": 2613,
      "##ape": 2614,
      "##arest": 2615,
      "##autiful": 2616,
      "##aped": 2617,
      "##aches": 2618,
      "##ails": 2619,
      "##aper": 2620,
      "##ases": 2621,
      "##aust": 2622,
      "##vid": 2623,
      "##ven": 2624,
      "##vir": 2625,
      "##vil": 2626,
      "##vel": 2627,
      "##vig": 2628,
      "##ia": 2629,
      "##iers": 2630,
      "##ior": 2631,
      "##ied": 2632,
      "##ible": 2633,
      "##iff": 2634,
      "##iation": 2635,
      "##ials": 2636,
      "##ival": 2637,
      "##ners": 2638,
      "##ned": 2639,
      "##nic": 2640,
      "##noon": 2641,
      "##nke": 2642,
      "##nival": 2643,
      "##gl": 2644,
      "##gre": 2645,
      "##gle": 2646,
      "##gen": 2647,
      "##ges": 2648,
      "##gund": 2649,
      "##gie": 2650,
      "##gry": 2651,
      "##gled": 2652,
      "##gles": 2653,
      "##geous": 2654,
      "##pit": 2655,
      "##par": 2656,
      "##pri": 2657,
      "##pes": 2658,
      "##plor": 2659,
      "##phed": 2660,
      "##pass": 2661,
      "##lle": 2662,
      "##lid": 2663,
      "##loo": 2664,
      "##lim": 2665,
      "##lum": 2666,
      "##lity": 2667,
      "##lines": 2668,
      "##lls": 2669,
      "##ey": 2670,
      "##eb": 2671,
      "##eat": 2672,
      "##eler": 2673,
      "##so": 2674,
      "##su": 2675,
      "##ser": 2676,
      "##spe": 2677,
      "##sion": 2678,
      "##shes": 2679,
      "##saur": 2680,
      "##sps": 2681,
      "##spit": 2682,
      "##hat": 2683,
      "##hirt": 2684,
      "##hou": 2685,
      "##hift": 2686,
      "##hlet": 2687,
      "##haust": 2688,
      "##op": 2689,
      "##od": 2690,
      "##ole": 2691,
      "##oli": 2692,
      "##osing": 2693,
      "##ocu": 2694,
      "##osaur": 2695,
      "##urs": 2696,
      "##ues": 2697,
      "##ucc": 2698,
      "##ured": 2699,
      "##uqu": 2700,
      "##udy": 2701,
      "##uals": 2702,
      "##ucking": 2703,
      "##cre": 2704,
      "##cle": 2705,
      "##cting": 2706,
      "##cla": 2707,
      "##cis": 2708,
      "##cra": 2709,
      "##cot": 2710,
      "##cell": 2711,
      "##cals": 2712,
      "##cline": 2713,
      "##cast": 2714,
      "##cape": 2715,
      "##ciation": 2716,
      "##de": 2717,
      "##dding": 2718,
      "##ders": 2719,
      "##dale": 2720,
      "##day": 2721,
      "##tit": 2722,
      "##ton": 2723,
      "##tet": 2724,
      "##tling": 2725,
      "##thes": 2726,
      "##thers": 2727,
      "##turn": 2728,
      "##ring": 2729,
      "##ride": 2730,
      "##rit": 2731,
      "##ron": 2732,
      "##ront": 2733,
      "##yon": 2734,
      "##yers": 2735,
      "##yee": 2736,
      "##ylor": 2737,
      "##yboard": 2738,
      "##yride": 2739,
      "##bb": 2740,
      "##bin": 2741,
      "##bor": 2742,
      "##bes": 2743,
      "##bie": 2744,
      "##bike": 2745,
      "##my": 2746,
      "##mit": 2747,
      "##med": 2748,
      "##mming": 2749,
      "##mot": 2750,
      "##mian": 2751,
      "##mates": 2752,
      "##kis": 2753,
      "##wing": 2754,
      "##wood": 2755,
      "##fle": 2756,
      "##fting": 2757,
      "##fun": 2758,
      "##fes": 2759,
      "##fly": 2760,
      "##fts": 2761,
      "##fant": 2762,
      "##front": 2763,
      "##zy": 2764,
      "##zing": 2765,
      "##zen": 2766,
      "##zzy": 2767,
      "##\"\"": 2768,
      "##hemian": 2769,
      "##ani": 2770,
      "##ano": 2771,
      "##anting": 2772,
      "##anitar": 2773,
      "##anion": 2774,
      "##anna": 2775,
      "##aneous": 2776,
      "##angled": 2777,
      "##inte": 2778,
      "##inaT": 2779,
      "##intet": 2780,
      "##rewn": 2781,
      "##reads": 2782,
      "##remen": 2783,
      "##refoot": 2784,
      "##ready": 2785,
      "##reciation": 2786,
      "manure": 2787,
      "##lel": 2788,
      "##less": 2789,
      "##idst": 2790,
      "##ided": 2791,
      "##uts": 2792,
      "##utching": 2793,
      "##ution": 2794,
      "##utical": 2795,
      "outst": 2796,
      "##ples": 2797,
      "indoor": 2798,
      "indi": 2799,
      "inform": 2800,
      "incl": 2801,
      "inspe": 2802,
      "incline": 2803,
      "infant": 2804,
      "##its": 2805,
      "##itol": 2806,
      "##enal": 2807,
      "##ending": 2808,
      "done": 2809,
      "docked": 2810,
      "donke": 2811,
      "##rst": 2812,
      "##rsuit": 2813,
      "##oming": 2814,
      "##omach": 2815,
      "##ompan": 2816,
      "ston": 2817,
      "stall": 2818,
      "stain": 2819,
      "stack": 2820,
      "states": 2821,
      "stacks": 2822,
      "start": 2823,
      "stret": 2824,
      "stuck": 2825,
      "stoops": 2826,
      "stays": 2827,
      "stucc": 2828,
      "strewn": 2829,
      "stomach": 2830,
      "site": 2831,
      "##aller": 2832,
      "##allel": 2833,
      "##ooting": 2834,
      "##lars": 2835,
      "##lable": 2836,
      "##lagers": 2837,
      "##ards": 2838,
      "##arts": 2839,
      "##enties": 2840,
      "sleds": 2841,
      "sledding": 2842,
      "angry": 2843,
      "##ern": 2844,
      "##ert": 2845,
      "##erna": 2846,
      "##erole": 2847,
      "##ercis": 2848,
      "##tio": 2849,
      "##tire": 2850,
      "##ties": 2851,
      "##tili": 2852,
      "##tive": 2853,
      "##tise": 2854,
      "##tistic": 2855,
      "##tival": 2856,
      "##irking": 2857,
      "placed": 2858,
      "##ons": 2859,
      "##onst": 2860,
      "##onball": 2861,
      "##onment": 2862,
      "downto": 2863,
      "downhill": 2864,
      "##ette": 2865,
      "##ator": 2866,
      "##atly": 2867,
      "shire": 2868,
      "shuck": 2869,
      "shrubs": 2870,
      "shaped": 2871,
      "shucking": 2872,
      "shooting": 2873,
      "##ror": 2874,
      "##roying": 2875,
      "##rots": 2876,
      "within": 2877,
      "without": 2878,
      "runner": 2879,
      "bout": 2880,
      "bound": 2881,
      "bouqu": 2882,
      "##erskis": 2883,
      "swings": 2884,
      "##cket": 2885,
      "##ckets": 2886,
      "##ster": 2887,
      "##stone": 2888,
      "##ory": 2889,
      "##orus": 2890,
      "##orcyc": 2891,
      "##orates": 2892,
      "##orical": 2893,
      "##orary": 2894,
      "##orned": 2895,
      "toe": 2896,
      "tour": 2897,
      "tourists": 2898,
      "##ilor": 2899,
      "##ilted": 2900,
      "##ilgate": 2901,
      "bay": 2902,
      "bars": 2903,
      "barefoot": 2904,
      "##rier": 2905,
      "##rive": 2906,
      "hose": 2907,
      "hops": 2908,
      "hospit": 2909,
      ".\"\"\"": 2910,
      "##ics": 2911,
      "##icers": 2912,
      "##ices": 2913,
      "##icious": 2914,
      "##ese": 2915,
      "##eshirt": 2916,
      "athlet": 2917,
      "attire": 2918,
      "##eling": 2919,
      "waterskis": 2920,
      "menu": 2921,
      "##ise": 2922,
      "##ished": 2923,
      "##ada": 2924,
      "##adition": 2925,
      "##adcast": 2926,
      "##iled": 2927,
      "##amer": 2928,
      "##amed": 2929,
      "##amped": 2930,
      "been": 2931,
      "best": 2932,
      "beam": 2933,
      "bever": 2934,
      "##rating": 2935,
      "##racing": 2936,
      "##rabble": 2937,
      "##raged": 2938,
      "##otogra": 2939,
      "##otted": 2940,
      "guiding": 2941,
      "guard": 2942,
      "guards": 2943,
      "##urch": 2944,
      "##urate": 2945,
      "##urring": 2946,
      "##sserole": 2947,
      "##chfor": 2948,
      "##chway": 2949,
      "##chasing": 2950,
      "baskets": 2951,
      "##lows": 2952,
      "carnival": 2953,
      "carrots": 2954,
      "words": 2955,
      "thick": 2956,
      "sour": 2957,
      "sold": 2958,
      "socks": 2959,
      "sopr": 2960,
      "soup": 2961,
      "solid": 2962,
      "intera": 2963,
      "fold": 2964,
      "foils": 2965,
      "##phalt": 2966,
      "##dscape": 2967,
      "##tsey": 2968,
      "framed": 2969,
      "waving": 2970,
      "brige": 2971,
      "bricks": 2972,
      "dogsled": 2973,
      "hate": 2974,
      "##bya": 2975,
      "##bye": 2976,
      "dries": 2977,
      "yelling": 2978,
      "someon": 2979,
      "lie": 2980,
      "lies": 2981,
      "live": 2982,
      "lifting": 2983,
      "cobble": 2984,
      "coast": 2985,
      "cocon": 2986,
      "colle": 2987,
      "code": 2988,
      "pops": 2989,
      "pours": 2990,
      "pockets": 2991,
      "##ctionately": 2992,
      "##tures": 2993,
      "##tured": 2994,
      "topic": 2995,
      "bush": 2996,
      "buys": 2997,
      "busts": 2998,
      "bugg": 2999,
      "bubble": 3000,
      "bucket": 3001,
      "hangs": 3002,
      "handles": 3003,
      "five": 3004,
      "first": 3005,
      "grab": 3006,
      "gravel": 3007,
      "sniff": 3008,
      "upwar": 3009,
      "uphill": 3010,
      "upturn": 3011,
      "feet": 3012,
      "groups": 3013,
      "grouped": 3014,
      "hay": 3015,
      "happy": 3016,
      "take": 3017,
      "tagg": 3018,
      "taken": 3019,
      "taylor": 3020,
      "tailgate": 3021,
      "microphones": 3022,
      "build": 3023,
      "built": 3024,
      "smaller": 3025,
      "smirking": 3026,
      "##rents": 3027,
      "##rence": 3028,
      "confe": 3029,
      "confet": 3030,
      "contain": 3031,
      "concer": 3032,
      "congre": 3033,
      "concre": 3034,
      "screen": 3035,
      "scub": 3036,
      "scarf": 3037,
      "scrubs": 3038,
      "scrabble": 3039,
      "backs": 3040,
      "backed": 3041,
      "backwards": 3042,
      "snowfla": 3043,
      "##vement": 3044,
      "##pect": 3045,
      "ropes": 3046,
      "rolls": 3047,
      "robes": 3048,
      "picnic": 3049,
      "##vertise": 3050,
      "##seup": 3051,
      "##ogs": 3052,
      "forces": 3053,
      "forwards": 3054,
      "paint": 3055,
      "paints": 3056,
      "##loyee": 3057,
      "temp": 3058,
      "teles": 3059,
      "teeshirt": 3060,
      "cramped": 3061,
      "ashes": 3062,
      "aspar": 3063,
      "asphalt": 3064,
      "backgrounds": 3065,
      "##ief": 3066,
      "##ldogs": 3067,
      "goes": 3068,
      "paintings": 3069,
      "##wardes": 3070,
      "act": 3071,
      "acous": 3072,
      "sidelines": 3073,
      "##ffles": 3074,
      "tables": 3075,
      "bends": 3076,
      "hairy": 3077,
      "##chet": 3078,
      "##chers": 3079,
      "nearest": 3080,
      "neatly": 3081,
      "##ongings": 3082,
      "##ppels": 3083,
      "##ppies": 3084,
      "ladder": 3085,
      "organ": 3086,
      "cast": 3087,
      "cage": 3088,
      "captu": 3089,
      "casu": 3090,
      "cabin": 3091,
      "casserole": 3092,
      "wheels": 3093,
      "wheeler": 3094,
      "also": 3095,
      "altit": 3096,
      "already": 3097,
      "playful": 3098,
      "saying": 3099,
      "sailor": 3100,
      "##cessing": 3101,
      "bowels": 3102,
      "Asia": 3103,
      "add": 3104,
      "adorned": 3105,
      "advertise": 3106,
      "##veseat": 3107,
      "##orters": 3108,
      "tangle": 3109,
      "##shade": 3110,
      "##shore": 3111,
      "washed": 3112,
      "skis": 3113,
      "skys": 3114,
      "skates": 3115,
      "mountainside": 3116,
      "stare": 3117,
      "stacking": 3118,
      "flowered": 3119,
      "attacks": 3120,
      "explor": 3121,
      "exits": 3122,
      "exercis": 3123,
      "expect": 3124,
      "pride": 3125,
      "photographed": 3126,
      "shaded": 3127,
      "scenery": 3128,
      "leg": 3129,
      "lean": 3130,
      "leans": 3131,
      "leading": 3132,
      "lecture": 3133,
      "cheer": 3134,
      "checked": 3135,
      "sunlight": 3136,
      "sunhat": 3137,
      "sunshade": 3138,
      "paying": 3139,
      "pairs": 3140,
      "packing": 3141,
      "paved": 3142,
      "papers": 3143,
      "patio": 3144,
      "parents": 3145,
      "pavement": 3146,
      "airbor": 3147,
      "club": 3148,
      "clust": 3149,
      "clutching": 3150,
      "chunk": 3151,
      "chases": 3152,
      "charts": 3153,
      "chorus": 3154,
      "church": 3155,
      "chief": 3156,
      "overhead": 3157,
      "overpass": 3158,
      "arches": 3159,
      "artic": 3160,
      "artistic": 3161,
      "arrive": 3162,
      "archway": 3163,
      "smilingly": 3164,
      "brothers": 3165,
      "broadcast": 3166,
      "midday": 3167,
      "perio": 3168,
      "signs": 3169,
      "signal": 3170,
      "strip": 3171,
      "striking": 3172,
      "strips": 3173,
      "strike": 3174,
      "more": 3175,
      "moving": 3176,
      "##feree": 3177,
      "prote": 3178,
      "proje": 3179,
      "propping": 3180,
      "proced": 3181,
      "procla": 3182,
      "profes": 3183,
      "processing": 3184,
      "parked": 3185,
      "real": 3186,
      "reads": 3187,
      "reached": 3188,
      "remot": 3189,
      "referee": 3190,
      "##isted": 3191,
      "##istani": 3192,
      "candle": 3193,
      "candles": 3194,
      "canyon": 3195,
      "canada": 3196,
      "##iceman": 3197,
      "catching": 3198,
      "catches": 3199,
      "##licking": 3200,
      "stopped": 3201,
      "stocked": 3202,
      "stopping": 3203,
      "capri": 3204,
      "capitol": 3205,
      "perform": 3206,
      "performer": 3207,
      "cups": 3208,
      "here": 3209,
      "heav": 3210,
      "##mpics": 3211,
      "officers": 3212,
      "surfs": 3213,
      "fail": 3214,
      "fashion": 3215,
      "facial": 3216,
      "treating": 3217,
      "treads": 3218,
      "apart": 3219,
      "apron": 3220,
      "amidst": 3221,
      "aquestri": 3222,
      "purchasing": 3223,
      "##airing": 3224,
      "##iews": 3225,
      "Toy": 3226,
      "Toky": 3227,
      "balcon": 3228,
      "apply": 3229,
      "appreciation": 3230,
      "filming": 3231,
      "fills": 3232,
      "highway": 3233,
      "##izen": 3234,
      "##izer": 3235,
      "##ization": 3236,
      "point": 3237,
      "points": 3238,
      "##boards": 3239,
      "Firemen": 3240,
      "bandmates": 3241,
      "bandanna": 3242,
      "glove": 3243,
      "notes": 3244,
      "noteb": 3245,
      "print": 3246,
      "kicked": 3247,
      "motoc": 3248,
      "##beled": 3249,
      "##becu": 3250,
      "folding": 3251,
      "excav": 3252,
      "paddleboarding": 3253,
      "banner": 3254,
      "banjo": 3255,
      "clay": 3256,
      "clasps": 3257,
      "square": 3258,
      "policeman": 3259,
      "attempt": 3260,
      "canoe": 3261,
      "motorbike": 3262,
      "follows": 3263,
      "Seven": 3264,
      "crisco": 3265,
      "owners": 3266,
      "pebble": 3267,
      "return": 3268,
      "sleeved": 3269,
      "begins": 3270,
      "thinning": 3271,
      "laid": 3272,
      "laps": 3273,
      "labeled": 3274,
      "racer": 3275,
      "railed": 3276,
      "rappels": 3277,
      "drying": 3278,
      "drill": 3279,
      "draws": 3280,
      "markers": 3281,
      "Short": 3282,
      "wooded": 3283,
      "woodwor": 3284,
      "##ipating": 3285,
      "suite": 3286,
      "enter": 3287,
      "envir": 3288,
      "engl": 3289,
      "enraged": 3290,
      "brush": 3291,
      "headed": 3292,
      "headphones": 3293,
      "bring": 3294,
      "brings": 3295,
      "deck": 3296,
      "dealt": 3297,
      "restara": 3298,
      "seen": 3299,
      "sees": 3300,
      "sewing": 3301,
      "swimsuit": 3302,
      "fireman": 3303,
      "firemen": 3304,
      "himsel": 3305,
      "trip": 3306,
      "tried": 3307,
      "tricks": 3308,
      "trials": 3309,
      "##olution": 3310,
      "graffitied": 3311,
      "design": 3312,
      "descent": 3313,
      "desert": 3314,
      "flying": 3315,
      "booklet": 3316,
      "diver": 3317,
      "diaper": 3318,
      "space": 3319,
      "spangled": 3320,
      "spreads": 3321,
      "spotted": 3322,
      "companion": 3323,
      "enjoys": 3324,
      "dish": 3325,
      "disc": 3326,
      "partic": 3327,
      "paras": 3328,
      "parallel": 3329,
      "parties": 3330,
      "jogs": 3331,
      "special": 3332,
      "unfun": 3333,
      "sticks": 3334,
      "musical": 3335,
      "musicians": 3336,
      "ages": 3337,
      "load": 3338,
      "loads": 3339,
      "loading": 3340,
      "locked": 3341,
      "loaded": 3342,
      "locals": 3343,
      "loveseat": 3344,
      "marching": 3345,
      "maroon": 3346,
      "marine": 3347,
      "##tern": 3348,
      "##tery": 3349,
      "##terfly": 3350,
      "leap": 3351,
      "leaping": 3352,
      "suits": 3353,
      "cooks": 3354,
      "gathers": 3355,
      "juke": 3356,
      "memb": 3357,
      "plying": 3358,
      "plane": 3359,
      "planting": 3360,
      "##ude": 3361,
      "##udes": 3362,
      "##cue": 3363,
      "bowls": 3364,
      "baton": 3365,
      "battling": 3366,
      "clean": 3367,
      "cleft": 3368,
      "clearing": 3369,
      "cleaning": 3370,
      "helping": 3371,
      "##tered": 3372,
      "##ended": 3373,
      "looked": 3374,
      "saxaphone": 3375,
      "climber": 3376,
      "butt": 3377,
      "butchers": 3378,
      "butterfly": 3379,
      "dinosaur": 3380,
      "daytim": 3381,
      "hoodie": 3382,
      "nap": 3383,
      "navig": 3384,
      "nautical": 3385,
      "native": 3386,
      "##tainer": 3387,
      "listener": 3388,
      "bushes": 3389,
      "busily": 3390,
      "jumpsuit": 3391,
      "raising": 3392,
      "direct": 3393,
      "directs": 3394,
      "windsurfs": 3395,
      "windsurfer": 3396,
      "uniformed": 3397,
      "trucker": 3398,
      "belt": 3399,
      "belly": 3400,
      "belongings": 3401,
      "creamer": 3402,
      "fingerna": 3403,
      "nightcl": 3404,
      "ribb": 3405,
      "rifle": 3406,
      "silhou": 3407,
      "zips": 3408,
      "##place": 3409,
      "##divers": 3410,
      "##top": 3411,
      "outfits": 3412,
      "steep": 3413,
      "steel": 3414,
      "stewardes": 3415,
      "carpeted": 3416,
      "backpacks": 3417,
      "army": 3418,
      "armed": 3419,
      "readily": 3420,
      "storefront": 3421,
      "skateboarder": 3422,
      "laughs": 3423,
      "support": 3424,
      "afternoon": 3425,
      "Chase": 3426,
      "Chines": 3427,
      "Chinese": 3428,
      "ChinaT": 3429,
      "account": 3430,
      "accord": 3431,
      "accompan": 3432,
      "accurate": 3433,
      "barren": 3434,
      "barbecu": 3435,
      "crossed": 3436,
      "friend": 3437,
      "goodies": 3438,
      "goodbye": 3439,
      "hits": 3440,
      "hitting": 3441,
      "hilltop": 3442,
      "mats": 3443,
      "match": 3444,
      "medals": 3445,
      "machines": 3446,
      "obser": 3447,
      "pots": 3448,
      "pottery": 3449,
      "pushes": 3450,
      "rowing": 3451,
      "rugged": 3452,
      "tattoos": 3453,
      "##agers": 3454,
      "##ages": 3455,
      "##agus": 3456,
      "##ague": 3457,
      "##retched": 3458,
      "stepped": 3459,
      "structure": 3460,
      "strumming": 3461,
      "student": 3462,
      "studying": 3463,
      "students": 3464,
      "studio": 3465,
      "strolling": 3466,
      "strolls": 3467,
      "boxes": 3468,
      "boarder": 3469,
      "blouse": 3470,
      "blocks": 3471,
      "wakeboards": 3472,
      "courtyard": 3473,
      "formation": 3474,
      "alleyway": 3475,
      "choir": 3476,
      "record": 3477,
      "recumb": 3478,
      "second": 3479,
      "securing": 3480,
      "splash": 3481,
      "splashes": 3482,
      "compete": 3483,
      "display": 3484,
      "displaying": 3485,
      "party": 3486,
      "wheelchair": 3487,
      "marketplace": 3488,
      "helmets": 3489,
      "directions": 3490,
      "Boy": 3491,
      "Boss": 3492,
      "Bohemian": 3493,
      "Street": 3494,
      "Stacks": 3495,
      "Story": 3496,
      "assisted": 3497,
      "breaded": 3498,
      "curb": 3499,
      "curved": 3500,
      "curtsey": 3501,
      "crouching": 3502,
      "crouched": 3503,
      "crouches": 3504,
      "cloudy": 3505,
      "digs": 3506,
      "emerge": 3507,
      "flour": 3508,
      "garment": 3509,
      "keyboard": 3510,
      "pitching": 3511,
      "pitcher": 3512,
      "pitchfor": 3513,
      "pattern": 3514,
      "serious": 3515,
      "sumo": 3516,
      "summer": 3517,
      "summit": 3518,
      "tram": 3519,
      "troops": 3520,
      "tradition": 3521,
      "tiled": 3522,
      "turns": 3523,
      "warms": 3524,
      "##panic": 3525,
      "##panese": 3526,
      "##ceries": 3527,
      "##berry": 3528,
      "strand": 3529,
      "strange": 3530,
      "strings": 3531,
      "statues": 3532,
      "strawberry": 3533,
      "plates": 3534,
      "smoke": 3535,
      "campus": 3536,
      "teenage": 3537,
      "teenagers": 3538,
      "paperwor": 3539,
      "performance3": 3540,
      "customer": 3541,
      "amongst": 3542,
      "balances": 3543,
      "devices": 3544,
      "seashore": 3545,
      "planter": 3546,
      "riverban": 3547,
      "objects": 3548,
      "gentlemen": 3549,
      "makeshift": 3550,
      "Beer": 3551,
      "Beautiful": 3552,
      "Dogs": 3553,
      "Gras": 3554,
      "Gray": 3555,
      "Life": 3556,
      "Libya": 3557,
      "Mothers": 3558,
      "Motorcyc": 3559,
      "Rover": 3560,
      "Roping": 3561,
      "Reporters": 3562,
      "Repairing": 3563,
      "boots": 3564,
      "boogie": 3565,
      "braided": 3566,
      "burning": 3567,
      "burgund": 3568,
      "culture": 3569,
      "cultures": 3570,
      "crown": 3571,
      "crochet": 3572,
      "crash": 3573,
      "crashing": 3574,
      "cycle": 3575,
      "cycling": 3576,
      "finish": 3577,
      "finished": 3578,
      "flag": 3579,
      "flashing": 3580,
      "fetch": 3581,
      "fetching": 3582,
      "frozen": 3583,
      "frolicking": 3584,
      "grand": 3585,
      "grill": 3586,
      "humans": 3587,
      "humanitar": 3588,
      "iron": 3589,
      "irrit": 3590,
      "kiss": 3591,
      "kissing": 3592,
      "littered": 3593,
      "ledge": 3594,
      "ledges": 3595,
      "makeup": 3596,
      "pursuit": 3597,
      "puppies": 3598,
      "quintet": 3599,
      "quilted": 3600,
      "resting": 3601,
      "rescue": 3602,
      "sales": 3603,
      "tiered": 3604,
      "toolbox": 3605,
      "widely": 3606,
      "##ifted": 3607,
      "##desdale": 3608,
      "##footed": 3609,
      "manicure": 3610,
      "manicured": 3611,
      "style": 3612,
      "styled": 3613,
      "starting": 3614,
      "touch": 3615,
      "touches": 3616,
      "tower": 3617,
      "towel": 3618,
      "bagged": 3619,
      "baggage": 3620,
      "carryout": 3621,
      "shoulder": 3622,
      "shoulders": 3623,
      "control": 3624,
      "contents": 3625,
      "alcohol": 3626,
      "alcoholic": 3627,
      "prank": 3628,
      "prances": 3629,
      "chefs": 3630,
      "chained": 3631,
      "dangerous": 3632,
      "item": 3633,
      "items": 3634,
      "model": 3635,
      "models": 3636,
      "mostly": 3637,
      "cloths": 3638,
      "procession": 3639,
      "reviews": 3640,
      "revolution": 3641,
      "regard": 3642,
      "register": 3643,
      "cannot": 3644,
      "cannonball": 3645,
      "approaches": 3646,
      "appropri": 3647,
      "bronc": 3648,
      "bronco": 3649,
      "deciding": 3650,
      "decorates": 3651,
      "demonst": 3652,
      "demise": 3653,
      "descend": 3654,
      "descending": 3655,
      "operating": 3656,
      "operation": 3657,
      "sporting": 3658,
      "sports": 3659,
      "knock": 3660,
      "knocked": 3661,
      "knitted": 3662,
      "sync": 3663,
      "synthes": 3664,
      "symbol": 3665,
      "symbols": 3666,
      "necklace": 3667,
      "necklaces": 3668,
      "violinists": 3669,
      "assorted": 3670,
      "assortment": 3671,
      "keeps": 3672,
      "keeping": 3673,
      "drummer": 3674,
      "practice": 3675,
      "practicing": 3676,
      "perfectly": 3677,
      "Arsenal": 3678,
      "BMX": 3679,
      "Brown": 3680,
      "Biker": 3681,
      "Barefooted": 3682,
      "Bishop": 3683,
      "Clydesdale": 3684,
      "Crafts": 3685,
      "Country": 3686,
      "Closeup": 3687,
      "Catholic": 3688,
      "Exhaust": 3689,
      "Emergen": 3690,
      "Eastern": 3691,
      "Ensuring": 3692,
      "Female": 3693,
      "Force": 3694,
      "Fellows": 3695,
      "Guys": 3696,
      "Here": 3697,
      "Hispanic": 3698,
      "Japanese": 3699,
      "League": 3700,
      "Louis": 3701,
      "Local": 3702,
      "MP3": 3703,
      "Monks": 3704,
      "Morgan": 3705,
      "Military": 3706,
      "Mardi": 3707,
      "Muslim": 3708,
      "National": 3709,
      "Olympics": 3710,
      "Overloo": 3711,
      "Photogra": 3712,
      "Pointe": 3713,
      "Pitcher": 3714,
      "Players": 3715,
      "Pictured": 3716,
      "Powell": 3717,
      "Pakistani": 3718,
      "Pedestrians": 3719,
      "Runners": 3720,
      "Save": 3721,
      "Someone": 3722,
      "Special": 3723,
      "Skydivers": 3724,
      "Team": 3725,
      "Tattooed": 3726,
      "Tripoli": 3727,
      "Vuitton": 3728,
      "avai": 3729,
      "aerial": 3730,
      "airlifted": 3731,
      "aisle": 3732,
      "average": 3733,
      "africa": 3734,
      "affectionately": 3735,
      "bmx": 3736,
      "binocu": 3737,
      "bulldogs": 3738,
      "binders": 3739,
      "browsing": 3740,
      "blazer": 3741,
      "civil": 3742,
      "cement": 3743,
      "citizen": 3744,
      "calf": 3745,
      "circle": 3746,
      "crucial": 3747,
      "candy": 3748,
      "crawl": 3749,
      "denim": 3750,
      "dunking": 3751,
      "drops": 3752,
      "dimly": 3753,
      "delicious": 3754,
      "drawn": 3755,
      "destroying": 3756,
      "dumpster": 3757,
      "dusk": 3758,
      "elf": 3759,
      "every": 3760,
      "extended": 3761,
      "employee": 3762,
      "embracing": 3763,
      "fuzzy": 3764,
      "fancy": 3765,
      "fiddler": 3766,
      "fenced": 3767,
      "fertili": 3768,
      "fully": 3769,
      "festival": 3770,
      "gives": 3771,
      "groceries": 3772,
      "gorgeous": 3773,
      "goggles": 3774,
      "glaze": 3775,
      "hunched": 3776,
      "horns": 3777,
      "hurrying": 3778,
      "hooked": 3779,
      "historical": 3780,
      "illum": 3781,
      "iPod": 3782,
      "joyride": 3783,
      "karate": 3784,
      "kneeling": 3785,
      "landscape": 3786,
      "learning": 3787,
      "lounges": 3788,
      "mirror": 3789,
      "miscell": 3790,
      "maybe": 3791,
      "materials": 3792,
      "marsh": 3793,
      "mixing": 3794,
      "nature": 3795,
      "numbers": 3796,
      "occurring": 3797,
      "opposing": 3798,
      "pins": 3799,
      "palate": 3800,
      "punching": 3801,
      "petals": 3802,
      "pillow": 3803,
      "priest": 3804,
      "plywood": 3805,
      "package": 3806,
      "pendants": 3807,
      "pedestrian": 3808,
      "ruffles": 3809,
      "roof": 3810,
      "rimmed": 3811,
      "rises": 3812,
      "ramp": 3813,
      "ripples": 3814,
      "sippy": 3815,
      "sinking": 3816,
      "senior": 3817,
      "salon": 3818,
      "slab": 3819,
      "searching": 3820,
      "sundown": 3821,
      "signing": 3822,
      "subway": 3823,
      "size": 3824,
      "twenties": 3825,
      "terrier": 3826,
      "tether": 3827,
      "turning": 3828,
      "tummy": 3829,
      "tongue": 3830,
      "tugging": 3831,
      "tumbling": 3832,
      "urban": 3833,
      "utility": 3834,
      "valley": 3835,
      "villagers": 3836,
      "vessel": 3837,
      "visible": 3838,
      "vendor": 3839,
      "wild": 3840,
      "wrist": 3841,
      "wrapped": 3842,
      "wetsuit": 3843,
      "wrestling": 3844,
      "welcoming": 3845,
      "yarn": 3846,
      "zombie": 3847,
      "##viduals": 3848,
      "##sionals": 3849,
      "##crapers": 3850,
      "##cotch": 3851,
      "outstretched": 3852,
      "individuals": 3853,
      "information": 3854,
      "includes": 3855,
      "inspects": 3856,
      "donkey": 3857,
      "stony": 3858,
      "stainless": 3859,
      "stretching": 3860,
      "stucco": 3861,
      "downtown": 3862,
      "shucker": 3863,
      "boundary": 3864,
      "bouquet": 3865,
      "hopscotch": 3866,
      "hospital": 3867,
      "athletes": 3868,
      "beverages": 3869,
      "soldiers": 3870,
      "soprano": 3871,
      "interacting": 3872,
      "folded": 3873,
      "someones": 3874,
      "cobblestone": 3875,
      "coconuts": 3876,
      "collection": 3877,
      "buggy": 3878,
      "bubbles": 3879,
      "sniffing": 3880,
      "upward": 3881,
      "upturned": 3882,
      "tagged": 3883,
      "conference": 3884,
      "confetti": 3885,
      "containers": 3886,
      "concert": 3887,
      "congregate": 3888,
      "concrete": 3889,
      "scuba": 3890,
      "snowflakes": 3891,
      "temporary": 3892,
      "telescope": 3893,
      "asparagus": 3894,
      "acoustic": 3895,
      "organization": 3896,
      "captured": 3897,
      "casual": 3898,
      "cabinet": 3899,
      "altitude": 3900,
      "playfully": 3901,
      "advertisement": 3902,
      "skyscrapers": 3903,
      "exploring": 3904,
      "exercising": 3905,
      "expectant": 3906,
      "sunhats": 3907,
      "airborne": 3908,
      "clustered": 3909,
      "article": 3910,
      "archways": 3911,
      "broadcasters": 3912,
      "period": 3913,
      "protects": 3914,
      "projects": 3915,
      "procedures": 3916,
      "proclaiming": 3917,
      "professionals": 3918,
      "remote": 3919,
      "heavy": 3920,
      "apartment": 3921,
      "aquestrian": 3922,
      "Tokyo": 3923,
      "balcony": 3924,
      "notebook": 3925,
      "motocross": 3926,
      "excavator": 3927,
      "woodworking": 3928,
      "entertainer": 3929,
      "environment": 3930,
      "english": 3931,
      "restaraunt": 3932,
      "himself": 3933,
      "participating": 3934,
      "parasails": 3935,
      "unfunny": 3936,
      "members": 3937,
      "daytime": 3938,
      "navigating": 3939,
      "fingernails": 3940,
      "nightclub": 3941,
      "ribbons": 3942,
      "silhouette": 3943,
      "stewardess": 3944,
      "ChinaTown": 3945,
      "accordion": 3946,
      "accompanied": 3947,
      "barbecued": 3948,
      "observe": 3949,
      "recorded": 3950,
      "recumbent": 3951,
      "pitchfork": 3952,
      "seriously": 3953,
      "traditional": 3954,
      "paperwork": 3955,
      "riverbank": 3956,
      "Motorcyclist": 3957,
      "burgundy": 3958,
      "humanitarian": 3959,
      "irritated": 3960,
      "revolutionary": 3961,
      "cannonballs": 3962,
      "appropriately": 3963,
      "demonstrating": 3964,
      "synthesizer": 3965,
      "Craftsman": 3966,
      "Exhausted": 3967,
      "Emergency": 3968,
      "Overlooking": 3969,
      "Photographer": 3970,
      "available": 3971,
      "binoculars": 3972,
      "civilians": 3973,
      "fertilizing": 3974,
      "illuminated": 3975,
      "miscellaneous": 3976
    }
  }
}